{
  "vocab": {
    "<pad>": 0,
    "<unk>": 1,
    "<bos>": 2,
    "<eos>": 3,
    "\n": 4,
    " ": 5,
    "'": 6,
    "(": 7,
    ")": 8,
    ",": 9,
    "-": 10,
    ".": 11,
    "0": 12,
    "1": 13,
    "2": 14,
    "3": 15,
    "4": 16,
    "5": 17,
    "6": 18,
    "7": 19,
    "8": 20,
    "9": 21,
    "A": 22,
    "B": 23,
    "C": 24,
    "D": 25,
    "E": 26,
    "F": 27,
    "G": 28,
    "I": 29,
    "L": 30,
    "M": 31,
    "N": 32,
    "P": 33,
    "R": 34,
    "S": 35,
    "T": 36,
    "U": 37,
    "V": 38,
    "Y": 39,
    "a": 40,
    "b": 41,
    "c": 42,
    "d": 43,
    "e": 44,
    "f": 45,
    "g": 46,
    "h": 47,
    "i": 48,
    "j": 49,
    "k": 50,
    "l": 51,
    "m": 52,
    "n": 53,
    "o": 54,
    "p": 55,
    "q": 56,
    "r": 57,
    "s": 58,
    "t": 59,
    "u": 60,
    "v": 61,
    "w": 62,
    "x": 63,
    "y": 64,
    "z": 65,
    "  ": 66,
    "    ": 67,
    "in": 68,
    " t": 69,
    "\n    ": 70,
    " a": 71,
    "on": 72,
    "\n      ": 73,
    "\n       ": 74,
    "er": 75,
    "or": 76,
    " th": 77,
    "ti": 78,
    "ra": 79,
    "en": 80,
    "ing": 81,
    "re": 82,
    " c": 83,
    " p": 84,
    "tion": 85,
    "es": 86,
    " the": 87,
    "an": 88,
    "ar": 89,
    " m": 90,
    " l": 91,
    "ed": 92,
    "at": 93,
    " d": 94,
    " in": 95,
    " f": 96,
    "ro": 97,
    "el": 98,
    " o": 99,
    "ch": 100,
    "it": 101,
    " b": 102,
    " an": 103,
    "ut": 104,
    " and": 105,
    "ic": 106,
    "et": 107,
    "om": 108,
    " w": 109,
    "is": 110,
    " of": 111,
    "al": 112,
    " n": 113,
    " s": 114,
    "ent": 115,
    " com": 116,
    "put": 117,
    "od": 118,
    " tra": 119,
    " T": 120,
    " to": 121,
    "ear": 122,
    " h": 123,
    " pro": 124,
    " comput": 125,
    "he": 126,
    "ec": 127,
    " re": 128,
    "ers": 129,
    "ation": 130,
    "ge": 131,
    "ce": 132,
    " mod": 133,
    "le": 134,
    "earn": 135,
    "ns": 136,
    "as": 137,
    "etw": 138,
    "ork": 139,
    "us": 140,
    "\n        ": 141,
    "\n        \n       ": 142,
    " The": 143,
    "ig": 144,
    " e": 145,
    " for": 146,
    "ll": 147,
    " netw": 148,
    " network": 149,
    " that": 150,
    "ul": 151,
    "ow": 152,
    " model": 153,
    "gra": 154,
    " learn": 155,
    " trans": 156,
    "ith": 157,
    "os": 158,
    "um": 159,
    " L": 160,
    " dat": 161,
    " data": 162,
    "ach": 163,
    "ay": 164,
    "Py": 165,
    " con": 166,
    "for": 167,
    "form": 168,
    " ar": 169,
    "ect": 170,
    "iz": 171,
    "ura": 172,
    "ural": 173,
    " lan": 174,
    "gu": 175,
    "age": 176,
    "ur": 177,
    " networks": 178,
    "tions": 179,
    "im": 180,
    "ke": 181,
    " is": 182,
    " are": 183,
    " train": 184,
    " learning": 185,
    "red": 186,
    " lay": 187,
    " it": 188,
    "th": 189,
    " transform": 190,
    "ure": 191,
    " langu": 192,
    "ces": 193,
    " A": 194,
    " by": 195,
    "pl": 196,
    "ac": 197,
    "eural": 198,
    " with": 199,
    " all": 200,
    "ence": 201,
    " wh": 202,
    " de": 203,
    "di": 204,
    " G": 205,
    "ui": 206,
    " on": 207,
    "ri": 208,
    " int": 209,
    "achin": 210,
    "achine": 211,
    "ell": 212,
    "st": 213,
    " ex": 214,
    " pred": 215,
    " predic": 216,
    " training": 217,
    " computing": 218,
    " 1": 219,
    " language": 220,
    " proces": 221,
    " process": 222,
    " I": 223,
    "ention": 224,
    "ou": 225,
    " neural": 226,
    " me": 227,
    "ly": 228,
    " we": 229,
    "igh": 230,
    " gra": 231,
    " gradi": 232,
    " gradient": 233,
    " M": 234,
    "ern": 235,
    " models": 236,
    "ike": 237,
    " C": 238,
    " bui": 239,
    " buil": 240,
    "ons": 241,
    "ram": 242,
    " fro": 243,
    " from": 244,
    "fic": 245,
    "fici": 246,
    " progra": 247,
    " program": 248,
    " machine": 249,
    " predictions": 250,
    "ations": 251,
    " des": 252,
    " er": 253,
    "'s": 254,
    "Pyth": 255,
    "Python": 256,
    "vel": 257,
    "ab": 258,
    " 19": 259,
    "op": 260,
    " (": 261,
    "ple": 262,
    "tic": 263,
    "ist": 264,
    " arch": 265,
    " archit": 266,
    " architect": 267,
    " architecture": 268,
    " has": 269,
    "vo": 270,
    "vol": 271,
    "ution": 272,
    "ized": 273,
    " pa": 274,
    "tention": 275,
    " al": 276,
    " rec": 277,
    " mech": 278,
    " mechan": 279,
    "ms": 280,
    "qu": 281,
    " sim": 282,
    " at": 283,
    " whi": 284,
    " weigh": 285,
    " weight": 286,
    "ci": 287,
    "ions": 288,
    "ramet": 289,
    "rameters": 290,
    " te": 291,
    " tex": 292,
    " text": 293,
    " arti": 294,
    " artifici": 295,
    " artificial": 296,
    " intell": 297,
    " intellig": 298,
    " intelligence": 299,
    " build": 300,
    " programm": 301,
    " programming": 302,
    "plic": 303,
    "ver": 304,
    " us": 305,
    " ma": 306,
    "ep": 307,
    " man": 308,
    " many": 309,
    " layers": 310,
    "cel": 311,
    "enti": 312,
    " err": 313,
    " error": 314,
    " fi": 315,
    " fir": 316,
    " first": 317,
    " Python": 318,
    "ular": 319,
    "des": 320,
    " pow": 321,
    " power": 322,
    "),": 323,
    " ch": 324,
    "gh": 325,
    "istor": 326,
    " bac": 327,
    " back": 328,
    "uring": 329,
    "ore": 330,
    " g": 331,
    "ate": 332,
    " cont": 333,
    "The": 334,
    " transformer": 335,
    "volution": 336,
    "nt": 337,
    "du": 338,
    "ark": 339,
    "per": 340,
    "eed": 341,
    " transformers": 342,
    " recur": 343,
    " recurr": 344,
    " recurrent": 345,
    " mechanis": 346,
    " can": 347,
    " pos": 348,
    " posi": 349,
    " positions": 350,
    " se": 351,
    " sequ": 352,
    "ous": 353,
    " input": 354,
    "pt": 355,
    "ran": 356,
    "den": 357,
    " v": 358,
    " van": 359,
    "ble": 360,
    "la": 361,
    " R": 362,
    "arge": 363,
    " like": 364,
    " GP": 365,
    "em": 366,
    "llions": 367,
    " parameters": 368,
    "ens": 369,
    " building": 370,
    " sy": 371,
    "like": 372,
    "tional": 373,
    "plicit": 374,
    " cod": 375,
    " alg": 376,
    " algor": 377,
    " algorith": 378,
    " pat": 379,
    " patt": 380,
    " patter": 381,
    " patterns": 382,
    " or": 383,
    " dec": 384,
    "bs": 385,
    " hi": 386,
    "ical": 387,
    " rep": 388,
    " repre": 389,
    " repres": 390,
    " represent": 391,
    " im": 392,
    " while": 393,
    " desig": 394,
    " design": 395,
    " designed": 396,
    "ential": 397,
    "ves": 398,
    "am": 399,
    " tar": 400,
    " targ": 401,
    " target": 402,
    " targets": 403,
    " ad": 404,
    " adj": 405,
    " adjus": 406,
    " adjust": 407,
    " desc": 408,
    " descent": 409,
    "ize": 410,
    " its": 411,
    "oss": 412,
    " pop": 413,
    " popular": 414,
    "ag": 415,
    " powerf": 416,
    " powerful": 417,
    " sci": 418,
    "and": 419,
    "PyT": 420,
    "PyTor": 421,
    "PyTorch": 422,
    "Fl": 423,
    " devel": 424,
    " develop": 425,
    "ment": 426,
    "oma": 427,
    " It": 428,
    " mak": 429,
    " makes": 430,
    " cho": 431,
    " choic": 432,
    " choice": 433,
    " be": 434,
    " beg": 435,
    " begin": 436,
    " beginn": 437,
    " en": 438,
    " comple": 439,
    " complex": 440,
    " deep": 441,
    "ff": 442,
    " ac": 443,
    " accel": 444,
    " acceler": 445,
    " y": 446,
    " year": 447,
    " years": 448,
    " modern": 449,
    " computers": 450,
    "les": 451,
    " B": 452,
    " computer": 453,
    "te": 454,
    " cons": 455,
    " Turing": 456,
    " computation": 457,
    "tical": 458,
    " transistor": 459,
    " Mo": 460,
    " Moore": 461,
    " gen": 462,
    " gener": 463,
    " hum": 464,
    " human": 465,
    " ra": 466,
    " layer": 467,
    " thro": 468,
    " throu": 469,
    " through": 470
  },
  "merges": [
    [
      " ",
      " "
    ],
    [
      "  ",
      "  "
    ],
    [
      "i",
      "n"
    ],
    [
      " ",
      "t"
    ],
    [
      "\n",
      "    "
    ],
    [
      " ",
      "a"
    ],
    [
      "o",
      "n"
    ],
    [
      "\n    ",
      "  "
    ],
    [
      "\n      ",
      " "
    ],
    [
      "e",
      "r"
    ],
    [
      "o",
      "r"
    ],
    [
      " t",
      "h"
    ],
    [
      "t",
      "i"
    ],
    [
      "r",
      "a"
    ],
    [
      "e",
      "n"
    ],
    [
      "in",
      "g"
    ],
    [
      "r",
      "e"
    ],
    [
      " ",
      "c"
    ],
    [
      " ",
      "p"
    ],
    [
      "ti",
      "on"
    ],
    [
      "e",
      "s"
    ],
    [
      " th",
      "e"
    ],
    [
      "a",
      "n"
    ],
    [
      "a",
      "r"
    ],
    [
      " ",
      "m"
    ],
    [
      " ",
      "l"
    ],
    [
      "e",
      "d"
    ],
    [
      "a",
      "t"
    ],
    [
      " ",
      "d"
    ],
    [
      " ",
      "in"
    ],
    [
      " ",
      "f"
    ],
    [
      "r",
      "o"
    ],
    [
      "e",
      "l"
    ],
    [
      " ",
      "o"
    ],
    [
      "c",
      "h"
    ],
    [
      "i",
      "t"
    ],
    [
      " ",
      "b"
    ],
    [
      " a",
      "n"
    ],
    [
      "u",
      "t"
    ],
    [
      " an",
      "d"
    ],
    [
      "i",
      "c"
    ],
    [
      "e",
      "t"
    ],
    [
      "o",
      "m"
    ],
    [
      " ",
      "w"
    ],
    [
      "i",
      "s"
    ],
    [
      " o",
      "f"
    ],
    [
      "a",
      "l"
    ],
    [
      " ",
      "n"
    ],
    [
      " ",
      "s"
    ],
    [
      "en",
      "t"
    ],
    [
      " c",
      "om"
    ],
    [
      "p",
      "ut"
    ],
    [
      "o",
      "d"
    ],
    [
      " t",
      "ra"
    ],
    [
      " ",
      "T"
    ],
    [
      " t",
      "o"
    ],
    [
      "e",
      "ar"
    ],
    [
      " ",
      "h"
    ],
    [
      " p",
      "ro"
    ],
    [
      " com",
      "put"
    ],
    [
      "h",
      "e"
    ],
    [
      "e",
      "c"
    ],
    [
      " ",
      "re"
    ],
    [
      "er",
      "s"
    ],
    [
      "a",
      "tion"
    ],
    [
      "g",
      "e"
    ],
    [
      "c",
      "e"
    ],
    [
      " m",
      "od"
    ],
    [
      "l",
      "e"
    ],
    [
      "ear",
      "n"
    ],
    [
      "n",
      "s"
    ],
    [
      "a",
      "s"
    ],
    [
      "et",
      "w"
    ],
    [
      "or",
      "k"
    ],
    [
      "u",
      "s"
    ],
    [
      "\n    ",
      "    "
    ],
    [
      "\n        ",
      "\n       "
    ],
    [
      " T",
      "he"
    ],
    [
      "i",
      "g"
    ],
    [
      " ",
      "e"
    ],
    [
      " f",
      "or"
    ],
    [
      "l",
      "l"
    ],
    [
      " n",
      "etw"
    ],
    [
      " netw",
      "ork"
    ],
    [
      " th",
      "at"
    ],
    [
      "u",
      "l"
    ],
    [
      "o",
      "w"
    ],
    [
      " mod",
      "el"
    ],
    [
      "g",
      "ra"
    ],
    [
      " l",
      "earn"
    ],
    [
      " tra",
      "ns"
    ],
    [
      "it",
      "h"
    ],
    [
      "o",
      "s"
    ],
    [
      "u",
      "m"
    ],
    [
      " ",
      "L"
    ],
    [
      " d",
      "at"
    ],
    [
      " dat",
      "a"
    ],
    [
      "a",
      "ch"
    ],
    [
      "a",
      "y"
    ],
    [
      "P",
      "y"
    ],
    [
      " c",
      "on"
    ],
    [
      "f",
      "or"
    ],
    [
      "for",
      "m"
    ],
    [
      " a",
      "r"
    ],
    [
      "ec",
      "t"
    ],
    [
      "i",
      "z"
    ],
    [
      "u",
      "ra"
    ],
    [
      "ura",
      "l"
    ],
    [
      " l",
      "an"
    ],
    [
      "g",
      "u"
    ],
    [
      "a",
      "ge"
    ],
    [
      "u",
      "r"
    ],
    [
      " network",
      "s"
    ],
    [
      "tion",
      "s"
    ],
    [
      "i",
      "m"
    ],
    [
      "k",
      "e"
    ],
    [
      " ",
      "is"
    ],
    [
      " a",
      "re"
    ],
    [
      " tra",
      "in"
    ],
    [
      " learn",
      "ing"
    ],
    [
      "re",
      "d"
    ],
    [
      " l",
      "ay"
    ],
    [
      " ",
      "it"
    ],
    [
      "t",
      "h"
    ],
    [
      " trans",
      "form"
    ],
    [
      "u",
      "re"
    ],
    [
      " lan",
      "gu"
    ],
    [
      "c",
      "es"
    ],
    [
      " ",
      "A"
    ],
    [
      " b",
      "y"
    ],
    [
      "p",
      "l"
    ],
    [
      "a",
      "c"
    ],
    [
      "e",
      "ural"
    ],
    [
      " w",
      "ith"
    ],
    [
      " a",
      "ll"
    ],
    [
      "en",
      "ce"
    ],
    [
      " w",
      "h"
    ],
    [
      " d",
      "e"
    ],
    [
      "d",
      "i"
    ],
    [
      " ",
      "G"
    ],
    [
      "u",
      "i"
    ],
    [
      " ",
      "on"
    ],
    [
      "r",
      "i"
    ],
    [
      " in",
      "t"
    ],
    [
      "ach",
      "in"
    ],
    [
      "achin",
      "e"
    ],
    [
      "el",
      "l"
    ],
    [
      "s",
      "t"
    ],
    [
      " e",
      "x"
    ],
    [
      " p",
      "red"
    ],
    [
      " pred",
      "ic"
    ],
    [
      " train",
      "ing"
    ],
    [
      " comput",
      "ing"
    ],
    [
      " ",
      "1"
    ],
    [
      " langu",
      "age"
    ],
    [
      " pro",
      "ces"
    ],
    [
      " proces",
      "s"
    ],
    [
      " ",
      "I"
    ],
    [
      "en",
      "tion"
    ],
    [
      "o",
      "u"
    ],
    [
      " n",
      "eural"
    ],
    [
      " m",
      "e"
    ],
    [
      "l",
      "y"
    ],
    [
      " w",
      "e"
    ],
    [
      "ig",
      "h"
    ],
    [
      " ",
      "gra"
    ],
    [
      " gra",
      "di"
    ],
    [
      " gradi",
      "ent"
    ],
    [
      " ",
      "M"
    ],
    [
      "er",
      "n"
    ],
    [
      " model",
      "s"
    ],
    [
      "i",
      "ke"
    ],
    [
      " ",
      "C"
    ],
    [
      " b",
      "ui"
    ],
    [
      " bui",
      "l"
    ],
    [
      "on",
      "s"
    ],
    [
      "ra",
      "m"
    ],
    [
      " f",
      "ro"
    ],
    [
      " fro",
      "m"
    ],
    [
      "f",
      "ic"
    ],
    [
      "fic",
      "i"
    ],
    [
      " pro",
      "gra"
    ],
    [
      " progra",
      "m"
    ],
    [
      " m",
      "achine"
    ],
    [
      " predic",
      "tions"
    ],
    [
      "ation",
      "s"
    ],
    [
      " d",
      "es"
    ],
    [
      " ",
      "er"
    ],
    [
      "'",
      "s"
    ],
    [
      "Py",
      "th"
    ],
    [
      "Pyth",
      "on"
    ],
    [
      "v",
      "el"
    ],
    [
      "a",
      "b"
    ],
    [
      " 1",
      "9"
    ],
    [
      "o",
      "p"
    ],
    [
      " ",
      "("
    ],
    [
      "p",
      "le"
    ],
    [
      "ti",
      "c"
    ],
    [
      "is",
      "t"
    ],
    [
      " ar",
      "ch"
    ],
    [
      " arch",
      "it"
    ],
    [
      " archit",
      "ect"
    ],
    [
      " architect",
      "ure"
    ],
    [
      " h",
      "as"
    ],
    [
      "v",
      "o"
    ],
    [
      "vo",
      "l"
    ],
    [
      "u",
      "tion"
    ],
    [
      "iz",
      "ed"
    ],
    [
      " p",
      "a"
    ],
    [
      "t",
      "ention"
    ],
    [
      " a",
      "l"
    ],
    [
      " re",
      "c"
    ],
    [
      " me",
      "ch"
    ],
    [
      " mech",
      "an"
    ],
    [
      "m",
      "s"
    ],
    [
      "q",
      "u"
    ],
    [
      " s",
      "im"
    ],
    [
      " a",
      "t"
    ],
    [
      " wh",
      "i"
    ],
    [
      " we",
      "igh"
    ],
    [
      " weigh",
      "t"
    ],
    [
      "c",
      "i"
    ],
    [
      "i",
      "ons"
    ],
    [
      "ram",
      "et"
    ],
    [
      "ramet",
      "ers"
    ],
    [
      " t",
      "e"
    ],
    [
      " te",
      "x"
    ],
    [
      " tex",
      "t"
    ],
    [
      " ar",
      "ti"
    ],
    [
      " arti",
      "fici"
    ],
    [
      " artifici",
      "al"
    ],
    [
      " int",
      "ell"
    ],
    [
      " intell",
      "ig"
    ],
    [
      " intellig",
      "ence"
    ],
    [
      " buil",
      "d"
    ],
    [
      " program",
      "m"
    ],
    [
      " programm",
      "ing"
    ],
    [
      "pl",
      "ic"
    ],
    [
      "v",
      "er"
    ],
    [
      " ",
      "us"
    ],
    [
      " m",
      "a"
    ],
    [
      "e",
      "p"
    ],
    [
      " m",
      "an"
    ],
    [
      " man",
      "y"
    ],
    [
      " lay",
      "ers"
    ],
    [
      "c",
      "el"
    ],
    [
      "en",
      "ti"
    ],
    [
      " er",
      "r"
    ],
    [
      " err",
      "or"
    ],
    [
      " f",
      "i"
    ],
    [
      " fi",
      "r"
    ],
    [
      " fir",
      "st"
    ],
    [
      " ",
      "Python"
    ],
    [
      "ul",
      "ar"
    ],
    [
      "d",
      "es"
    ],
    [
      " p",
      "ow"
    ],
    [
      " pow",
      "er"
    ],
    [
      ")",
      ","
    ],
    [
      " c",
      "h"
    ],
    [
      "g",
      "h"
    ],
    [
      "ist",
      "or"
    ],
    [
      " b",
      "ac"
    ],
    [
      " bac",
      "k"
    ],
    [
      "ur",
      "ing"
    ],
    [
      "or",
      "e"
    ],
    [
      " ",
      "g"
    ],
    [
      "at",
      "e"
    ],
    [
      " con",
      "t"
    ],
    [
      "T",
      "he"
    ],
    [
      " transform",
      "er"
    ],
    [
      "vol",
      "ution"
    ],
    [
      "n",
      "t"
    ],
    [
      "d",
      "u"
    ],
    [
      "ar",
      "k"
    ],
    [
      "p",
      "er"
    ],
    [
      "e",
      "ed"
    ],
    [
      " transform",
      "ers"
    ],
    [
      " rec",
      "ur"
    ],
    [
      " recur",
      "r"
    ],
    [
      " recurr",
      "ent"
    ],
    [
      " mechan",
      "is"
    ],
    [
      " c",
      "an"
    ],
    [
      " p",
      "os"
    ],
    [
      " pos",
      "i"
    ],
    [
      " posi",
      "tions"
    ],
    [
      " s",
      "e"
    ],
    [
      " se",
      "qu"
    ],
    [
      "o",
      "us"
    ],
    [
      " in",
      "put"
    ],
    [
      "p",
      "t"
    ],
    [
      "ra",
      "n"
    ],
    [
      "d",
      "en"
    ],
    [
      " ",
      "v"
    ],
    [
      " v",
      "an"
    ],
    [
      "b",
      "le"
    ],
    [
      "l",
      "a"
    ],
    [
      " ",
      "R"
    ],
    [
      "ar",
      "ge"
    ],
    [
      " l",
      "ike"
    ],
    [
      " G",
      "P"
    ],
    [
      "e",
      "m"
    ],
    [
      "ll",
      "ions"
    ],
    [
      " pa",
      "rameters"
    ],
    [
      "en",
      "s"
    ],
    [
      " build",
      "ing"
    ],
    [
      " s",
      "y"
    ],
    [
      "l",
      "ike"
    ],
    [
      "tion",
      "al"
    ],
    [
      "plic",
      "it"
    ],
    [
      " c",
      "od"
    ],
    [
      " al",
      "g"
    ],
    [
      " alg",
      "or"
    ],
    [
      " algor",
      "ith"
    ],
    [
      " p",
      "at"
    ],
    [
      " pat",
      "t"
    ],
    [
      " patt",
      "er"
    ],
    [
      " patter",
      "ns"
    ],
    [
      " ",
      "or"
    ],
    [
      " d",
      "ec"
    ],
    [
      "b",
      "s"
    ],
    [
      " h",
      "i"
    ],
    [
      "ic",
      "al"
    ],
    [
      " re",
      "p"
    ],
    [
      " rep",
      "re"
    ],
    [
      " repre",
      "s"
    ],
    [
      " repres",
      "ent"
    ],
    [
      " ",
      "im"
    ],
    [
      " whi",
      "le"
    ],
    [
      " des",
      "ig"
    ],
    [
      " desig",
      "n"
    ],
    [
      " design",
      "ed"
    ],
    [
      "enti",
      "al"
    ],
    [
      "v",
      "es"
    ],
    [
      "a",
      "m"
    ],
    [
      " t",
      "ar"
    ],
    [
      " tar",
      "g"
    ],
    [
      " targ",
      "et"
    ],
    [
      " target",
      "s"
    ],
    [
      " a",
      "d"
    ],
    [
      " ad",
      "j"
    ],
    [
      " adj",
      "us"
    ],
    [
      " adjus",
      "t"
    ],
    [
      " des",
      "c"
    ],
    [
      " desc",
      "ent"
    ],
    [
      "iz",
      "e"
    ],
    [
      " it",
      "s"
    ],
    [
      "os",
      "s"
    ],
    [
      " p",
      "op"
    ],
    [
      " pop",
      "ular"
    ],
    [
      "a",
      "g"
    ],
    [
      " power",
      "f"
    ],
    [
      " powerf",
      "ul"
    ],
    [
      " s",
      "ci"
    ],
    [
      "an",
      "d"
    ],
    [
      "Py",
      "T"
    ],
    [
      "PyT",
      "or"
    ],
    [
      "PyTor",
      "ch"
    ],
    [
      "F",
      "l"
    ],
    [
      " de",
      "vel"
    ],
    [
      " devel",
      "op"
    ],
    [
      "m",
      "ent"
    ],
    [
      "om",
      "a"
    ],
    [
      " I",
      "t"
    ],
    [
      " ma",
      "k"
    ],
    [
      " mak",
      "es"
    ],
    [
      " ch",
      "o"
    ],
    [
      " cho",
      "ic"
    ],
    [
      " choic",
      "e"
    ],
    [
      " b",
      "e"
    ],
    [
      " be",
      "g"
    ],
    [
      " beg",
      "in"
    ],
    [
      " begin",
      "n"
    ],
    [
      " ",
      "en"
    ],
    [
      " com",
      "ple"
    ],
    [
      " comple",
      "x"
    ],
    [
      " de",
      "ep"
    ],
    [
      "f",
      "f"
    ],
    [
      " a",
      "c"
    ],
    [
      " ac",
      "cel"
    ],
    [
      " accel",
      "er"
    ],
    [
      " ",
      "y"
    ],
    [
      " y",
      "ear"
    ],
    [
      " year",
      "s"
    ],
    [
      " mod",
      "ern"
    ],
    [
      " comput",
      "ers"
    ],
    [
      "l",
      "es"
    ],
    [
      " ",
      "B"
    ],
    [
      " comput",
      "er"
    ],
    [
      "t",
      "e"
    ],
    [
      " con",
      "s"
    ],
    [
      " T",
      "uring"
    ],
    [
      " comput",
      "ation"
    ],
    [
      "tic",
      "al"
    ],
    [
      " trans",
      "istor"
    ],
    [
      " M",
      "o"
    ],
    [
      " Mo",
      "ore"
    ],
    [
      " g",
      "en"
    ],
    [
      " gen",
      "er"
    ],
    [
      " h",
      "um"
    ],
    [
      " hum",
      "an"
    ],
    [
      " ",
      "ra"
    ],
    [
      " lay",
      "er"
    ],
    [
      " th",
      "ro"
    ],
    [
      " thro",
      "u"
    ],
    [
      " throu",
      "gh"
    ]
  ],
  "target_vocab_size": 4096
}